#include <cstdint>

alignas(8) const unsigned char riego_model[] = {
0x1c, 0x00, 0x00, 0x00, 0x54, 0x46, 0x4c, 0x33, 0x14, 0x00, 0x20, 0x00, 0x1c, 0x00, 0x18, 0x00, 0x14, 0x00, 0x10, 0x00, 0x0c, 0x00, 0x00, 0x00, 0x08, 0x00, 0x04, 0x00, 0x14, 0x00, 0x00, 0x00, 0x1c, 0x00, 0x00, 0x00, 0x98, 0x00, 0x00, 0x00, 0xf0, 0x00, 0x00, 0x00, 0x54, 0x05, 0x00, 0x00, 0x64, 0x05, 0x00, 0x00, 0x4c, 0x0a, 0x00, 0x00, 0x03, 0x00, 0x00, 0x00, 0x01, 0x00, 0x00, 0x00, 0x10, 0x00, 0x00, 0x00, 0x00, 0x00, 0x0a, 0x00, 0x10, 0x00, 0x0c, 0x00, 0x08, 0x00, 0x04, 0x00, 0x0a, 0x00, 0x00, 0x00, 0x0c, 0x00, 0x00, 0x00, 0x1c, 0x00, 0x00, 0x00, 0x3c, 0x00, 0x00, 0x00, 0x0f, 0x00, 0x00, 0x00, 0x73, 0x65, 0x72, 0x76, 0x69, 0x6e, 0x67, 0x5f, 0x64, 0x65, 0x66, 0x61, 0x75, 0x6c, 0x74, 0x00, 0x01, 0x00, 0x00, 0x00, 0x04, 0x00, 0x00, 0x00, 0x90, 0xff, 0xff, 0xff, 0x09, 0x00, 0x00, 0x00, 0x04, 0x00, 0x00, 0x00, 0x08, 0x00, 0x00, 0x00, 0x6f, 0x75, 0x74, 0x70, 0x75, 0x74, 0x5f, 0x30, 0x00, 0x00, 0x00, 0x00, 0x01, 0x00, 0x00, 0x00, 0x04, 0x00, 0x00, 0x00, 0x5a, 0xfb, 0xff, 0xff, 0x04, 0x00, 0x00, 0x00, 0x0c, 0x00, 0x00, 0x00, 0x6b, 0x65, 0x72, 0x61, 0x73, 0x5f, 0x74, 0x65, 0x6e, 0x73, 0x6f, 0x72, 0x00, 0x00, 0x00, 0x00, 0x02, 0x00, 0x00, 0x00, 0x34, 0x00, 0x00, 0x00, 0x04, 0x00, 0x00, 0x00, 0xdc, 0xff, 0xff, 0xff, 0x0c, 0x00, 0x00, 0x00, 0x04, 0x00, 0x00, 0x00, 0x13, 0x00, 0x00, 0x00, 0x43, 0x4f, 0x4e, 0x56, 0x45, 0x52, 0x53, 0x49, 0x4f, 0x4e, 0x5f, 0x4d, 0x45, 0x54, 0x41, 0x44, 0x41, 0x54, 0x41, 0x00, 0x08, 0x00, 0x0c, 0x00, 0x08, 0x00, 0x04, 0x00, 0x08, 0x00, 0x00, 0x00, 0x0b, 0x00, 0x00, 0x00, 0x04, 0x00, 0x00, 0x00, 0x13, 0x00, 0x00, 0x00, 0x6d, 0x69, 0x6e, 0x5f, 0x72, 0x75, 0x6e, 0x74, 0x69, 0x6d, 0x65, 0x5f, 0x76, 0x65, 0x72, 0x73, 0x69, 0x6f, 0x6e, 0x00, 0x0d, 0x00, 0x00, 0x00, 0x60, 0x04, 0x00, 0x00, 0x58, 0x04, 0x00, 0x00, 0x28, 0x04, 0x00, 0x00, 0x10, 0x02, 0x00, 0x00, 0xfc, 0x01, 0x00, 0x00, 0xcc, 0x01, 0x00, 0x00, 0x7c, 0x01, 0x00, 0x00, 0xac, 0x00, 0x00, 0x00, 0xa4, 0x00, 0x00, 0x00, 0x9c, 0x00, 0x00, 0x00, 0x94, 0x00, 0x00, 0x00, 0x74, 0x00, 0x00, 0x00, 0x04, 0x00, 0x00, 0x00, 0x0a, 0xfc, 0xff, 0xff, 0x04, 0x00, 0x00, 0x00, 0x60, 0x00, 0x00, 0x00, 0x0c, 0x00, 0x00, 0x00, 0x08, 0x00, 0x0e, 0x00, 0x08, 0x00, 0x04, 0x00, 0x08, 0x00, 0x00, 0x00, 0x10, 0x00, 0x00, 0x00, 0x28, 0x00, 0x00, 0x00, 0x00, 0x00, 0x06, 0x00, 0x08, 0x00, 0x04, 0x00, 0x06, 0x00, 0x00, 0x00, 0x04, 0x00, 0x00, 0x00, 0x01, 0x00, 0x00, 0x00, 0xea, 0x03, 0x00, 0x00, 0x0c, 0x00, 0x18, 0x00, 0x14, 0x00, 0x10, 0x00, 0x0c, 0x00, 0x04, 0x00, 0x0c, 0x00, 0x00, 0x00, 0x5f, 0xa1, 0x8d, 0xaf, 0x42, 0x3b, 0x9c, 0x46, 0x02, 0x00, 0x00, 0x00, 0x02, 0x00, 0x00, 0x00, 0x04, 0x00, 0x00, 0x00, 0x06, 0x00, 0x00, 0x00, 0x32, 0x2e, 0x31, 0x39, 0x2e, 0x30, 0x00, 0x00, 0x76, 0xfc, 0xff, 0xff, 0x04, 0x00, 0x00, 0x00, 0x10, 0x00, 0x00, 0x00, 0x31, 0x2e, 0x35, 0x2e, 0x30, 0x00, 0x00, 0x00, 0x00, 0x00, 0x00, 0x00, 0x00, 0x00, 0x00, 0x00, 0x90, 0xf7, 0xff, 0xff, 0x94, 0xf7, 0xff, 0xff, 0x98, 0xf7, 0xff, 0xff, 0x9e, 0xfc, 0xff, 0xff, 0x04, 0x00, 0x00, 0x00, 0xc0, 0x00, 0x00, 0x00, 0x28, 0x2c, 0xfa, 0x3e, 0x7d, 0x0c, 0xbb, 0xbd, 0x77, 0x58, 0x4d, 0xbe, 0xd1, 0xba, 0xeb, 0xbd, 0xec, 0x0f, 0x75, 0x3b, 0x9b, 0xa2, 0x6f, 0x3a, 0x48, 0x22, 0xb5, 0x3e, 0x59, 0xca, 0xe9, 0xbe, 0xbe, 0xc0, 0x06, 0xbd, 0xdd, 0x6c, 0x23, 0xbe, 0x43, 0x9a, 0x98, 0x3e, 0x18, 0x1c, 0x1b, 0x3e, 0xa7, 0xa8, 0xbb, 0xbd, 0xc4, 0x4a, 0xd7, 0xbb, 0x1c, 0x0a, 0xda, 0x39, 0xcf, 0x26, 0x6f, 0xbc, 0xe7, 0xc1, 0x87, 0x3e, 0x1d, 0xea, 0x68, 0xbd, 0x4e, 0xff, 0x59, 0x3c, 0xdf, 0xf9, 0x6e, 0xbe, 0x4b, 0x50, 0x03, 0x3b, 0xfa, 0xf7, 0xa2, 0xbe, 0x14, 0x7d, 0x03, 0xbf, 0x80, 0x72, 0x26, 0xbc, 0x36, 0xaa, 0x84, 0xbe, 0xf8, 0x39, 0xb5, 0xbe, 0x08, 0x8d, 0xda, 0x3e, 0x75, 0xac, 0xe7, 0x3e, 0xba, 0x03, 0x2c, 0xbe, 0x07, 0xd2, 0xdc, 0xbd, 0xc0, 0xb8, 0x33, 0x3d, 0x2c, 0xe1, 0xba, 0xbe, 0xd7, 0x08, 0x03, 0x3e, 0x6b, 0x58, 0x59, 0xbc, 0x9c, 0x7a, 0xd5, 0xbe, 0x24, 0x14, 0xf7, 0x3e, 0xe6, 0x38, 0x5c, 0x3d, 0xb3, 0x1c, 0x83, 0x3e, 0x50, 0x1a, 0x2e, 0xbf, 0xce, 0xd4, 0x68, 0xbe, 0xfe, 0x60, 0xa5, 0xbe, 0xcb, 0xe9, 0xe0, 0x3e, 0xcb, 0x76, 0xe5, 0x3d, 0x8b, 0x54, 0xa0, 0x3e, 0x34, 0xd9, 0x58, 0x3d, 0x65, 0x02, 0xdd, 0x3d, 0x68, 0xfb, 0x15, 0xbf, 0xf7, 0xaa, 0xff, 0x3e, 0x6a, 0xfd, 0xff, 0xff, 0x04, 0x00, 0x00, 0x00, 0x40, 0x00, 0x00, 0x00, 0xd4, 0xa3, 0x29, 0x3e, 0x10, 0x43, 0x98, 0x40, 0x57, 0x49, 0x81, 0x3f, 0x21, 0x45, 0x34, 0x3f, 0x33, 0xf4, 0x67, 0x40, 0xae, 0xff, 0xa7, 0xbf, 0xf8, 0xfb, 0xa7, 0x40, 0x00, 0x00, 0x00, 0x00, 0xe4, 0xcd, 0xe4, 0x3f, 0x3e, 0x7f, 0x2b, 0xc0, 0x12, 0x16, 0xd9, 0xbe, 0x6a, 0xc9, 0x8f, 0x3f, 0x08, 0xba, 0x23, 0x3f, 0xfa, 0xc0, 0xab, 0xbf, 0x72, 0xa8, 0x49, 0xbe, 0x81, 0x13, 0x62, 0xbf, 0xb6, 0xfd, 0xff, 0xff, 0x04, 0x00, 0x00, 0x00, 0x20, 0x00, 0x00, 0x00, 0x4b, 0x08, 0xf1, 0x3d, 0x3f, 0xcb, 0x88, 0xbc, 0x24, 0x88, 0xbe, 0x3e, 0x00, 0x00, 0x00, 0x00, 0xd1, 0xba, 0x64, 0xbe, 0xfe, 0xf6, 0x81, 0x3f, 0x00, 0x00, 0x00, 0x00, 0x20, 0xd4, 0xc9, 0xbc, 0xe2, 0xfd, 0xff, 0xff, 0x04, 0x00, 0x00, 0x00, 0x04, 0x00, 0x00, 0x00, 0x4b, 0x9b, 0x3a, 0xbe, 0xf2, 0xfd, 0xff, 0xff, 0x04, 0x00, 0x00, 0x00, 0x00, 0x02, 0x00, 0x00, 0xec, 0x91, 0x96, 0xbc, 0xdc, 0xaf, 0x5a, 0x3e, 0x25, 0xc3, 0x2a, 0xbd, 0x07, 0x08, 0x0d, 0xbe, 0x5c, 0x37, 0x73, 0xbf, 0x7d, 0x7a, 0x97, 0x3e, 0x28, 0xb6, 0x9e, 0x3e, 0x48, 0xcf, 0x8e, 0xbe, 0x4b, 0x80, 0x84, 0x3e, 0xc6, 0xd0, 0x71, 0x3f, 0x34, 0xab, 0x3d, 0xbe, 0x69, 0x88, 0xa6, 0xbd, 0x85, 0x98, 0x2e, 0xbe, 0x71, 0x84, 0x48, 0x3d, 0xe8, 0x7a, 0xd9, 0x3d, 0xf0, 0x77, 0x99, 0x3d, 0x91, 0x69, 0x27, 0xbe, 0xeb, 0xe6, 0x99, 0xc0, 0x7a, 0x96, 0xa3, 0xbe, 0x94, 0xdd, 0xf9, 0x3d, 0x2f, 0x7f, 0xdd, 0xbe, 0x0b, 0xe5, 0x52, 0x3d, 0xfd, 0xa4, 0xa0, 0x3e, 0x40, 0x79, 0xa8, 0xbe, 0x83, 0xdf, 0x5a, 0xbd, 0xf7, 0xe8, 0x19, 0x3f, 0x92, 0x1b, 0x89, 0xbd, 0x5e, 0xa4, 0x1a, 0xbe, 0x6b, 0x24, 0xa9, 0x3e, 0xe9, 0xc8, 0x88, 0x3d, 0x40, 0x30, 0x3d, 0xbc, 0xf4, 0xb2, 0x1d, 0x3e, 0x5a, 0xa3, 0xc6, 0xbe, 0xa8, 0x75, 0x42, 0x3f, 0x54, 0x6c, 0xac, 0xbe, 0x22, 0x27, 0x98, 0x3d, 0x9a, 0xba, 0xc1, 0xbf, 0xf2, 0x1a, 0x72, 0x3b, 0xe7, 0x52, 0xa7, 0xbd, 0x00, 0x27, 0x2b, 0x3c, 0x09, 0x98, 0x89, 0xbe, 0x46, 0x86, 0xba, 0x3e, 0x20, 0xfd, 0x9a, 0x3c, 0x9e, 0x43, 0x00, 0x3e, 0x05, 0xfe, 0xaa, 0xbc, 0x35, 0x47, 0x25, 0xbd, 0x1e, 0x94, 0xc8, 0x3e, 0x0e, 0x31, 0x91, 0xbc, 0x50, 0xf4, 0xad, 0xbd, 0x10, 0x53, 0xc9, 0x3d, 0x78, 0xbe, 0x09, 0x3e, 0xfc, 0x95, 0xf0, 0xbe, 0x34, 0x37, 0xb5, 0xbe, 0x68, 0x16, 0x1f, 0xbe, 0x40, 0x28, 0x61, 0x3e, 0x90, 0x3b, 0x78, 0x3e, 0x38, 0x5d, 0x4a, 0x3e, 0x78, 0x21, 0x4e, 0xbe, 0x40, 0xc7, 0x76, 0x3d, 0x34, 0x5b, 0xe7, 0xbe, 0x40, 0x38, 0x1f, 0xbd, 0x80, 0x9d, 0x90, 0xbd, 0x00, 0xf3, 0xbd, 0xbd, 0x20, 0x2d, 0x7d, 0x3d, 0x3b, 0xfd, 0x86, 0xbe, 0x03, 0x40, 0x4e, 0xbe, 0xe0, 0xe0, 0xb0, 0xbf, 0x9c, 0xdb, 0x04, 0x3f, 0xe7, 0xc3, 0x54, 0xbe, 0xde, 0xca, 0x20, 0x3e, 0xa4, 0xe1, 0x5c, 0x3e, 0xc0, 0x6b, 0xf2, 0xbe, 0xf7, 0x01, 0x03, 0xbe, 0xca, 0x94, 0xd1, 0x3e, 0x5e, 0x74, 0x4b, 0xbd, 0xe0, 0xa6, 0x46, 0xbf, 0x9c, 0xb3, 0x5e, 0x3e, 0xa5, 0x76, 0x62, 0x3e, 0xb3, 0x97, 0x28, 0xbe, 0xdb, 0xb4, 0x85, 0xbe, 0xc9, 0x42, 0x13, 0x3e, 0x65, 0x0d, 0x01, 0x3f, 0xec, 0x81, 0x2a, 0x3e, 0x05, 0xea, 0x8f, 0x3e, 0x25, 0x22, 0xcc, 0xbf, 0xd6, 0xd8, 0x6d, 0x3c, 0x34, 0x18, 0x50, 0x3f, 0x50, 0x8f, 0xa5, 0xbe, 0x9b, 0xd8, 0x33, 0x3e, 0x3d, 0x34, 0xdb, 0xbe, 0x04, 0x8b, 0x26, 0xbd, 0x71, 0xf4, 0x8c, 0x3e, 0x68, 0xd8, 0xef, 0x3e, 0x00, 0x07, 0xeb, 0xbd, 0x2b, 0x96, 0x8a, 0xbd, 0xee, 0x40, 0xd1, 0xbe, 0x00, 0x29, 0x86, 0x3e, 0x40, 0x0e, 0x24, 0xbe, 0x80, 0x57, 0xc1, 0xbe, 0x10, 0x5a, 0x01, 0x3e, 0x54, 0x57, 0xfd, 0xbe, 0x38, 0x32, 0x57, 0x3e, 0x88, 0x94, 0xf4, 0xbe, 0x44, 0x66, 0x9e, 0x3e, 0xe0, 0x79, 0xa2, 0x3d, 0x7c, 0x2c, 0xfe, 0xbe, 0x40, 0xe1, 0x99, 0xbc, 0x58, 0xde, 0xf2, 0xbe, 0x9c, 0x7f, 0x9e, 0xbe, 0x28, 0xec, 0x65, 0x3e, 0x68, 0x42, 0xd0, 0xbe, 0xa0, 0x6f, 0x76, 0x3e, 0xc1, 0x9b, 0xfe, 0xbe, 0xb9, 0xa5, 0xb3, 0xbb, 0x42, 0xf9, 0x1f, 0x3d, 0x25, 0x17, 0x50, 0xbe, 0xd9, 0xf9, 0x8e, 0xbe, 0x99, 0x82, 0xb2, 0xbe, 0x44, 0x52, 0x35, 0x3d, 0xf0, 0x65, 0x9d, 0x3d, 0x6b, 0x7f, 0xd6, 0xbe, 0xef, 0x08, 0xb8, 0x3e, 0xc0, 0x57, 0x11, 0xbd, 0x99, 0x9e, 0x9c, 0x3d, 0x9c, 0x0b, 0x92, 0xbe, 0xf4, 0x59, 0x57, 0xbe, 0xb9, 0xb6, 0x91, 0x3e, 0x54, 0xaf, 0x03, 0xbf, 0x00, 0x00, 0x06, 0x00, 0x08, 0x00, 0x04, 0x00, 0x06, 0x00, 0x00, 0x00, 0x04, 0x00, 0x00, 0x00, 0x20, 0x00, 0x00, 0x00, 0xb5, 0x38, 0x92, 0x3e, 0x6f, 0xca, 0xa2, 0xbf, 0xc5, 0x11, 0x94, 0x3e, 0xb4, 0x45, 0xf8, 0xbe, 0x3b, 0x03, 0x8f, 0x3f, 0x63, 0x07, 0xd6, 0x3f, 0x18, 0x1c, 0xdb, 0x3d, 0x2f, 0xf2, 0x91, 0x3e, 0x30, 0xfb, 0xff, 0xff, 0x34, 0xfb, 0xff, 0xff, 0x0f, 0x00, 0x00, 0x00, 0x4d, 0x4c, 0x49, 0x52, 0x20, 0x43, 0x6f, 0x6e, 0x76, 0x65, 0x72, 0x74, 0x65, 0x64, 0x2e, 0x00, 0x01, 0x00, 0x00, 0x00, 0x14, 0x00, 0x00, 0x00, 0x00, 0x00, 0x0e, 0x00, 0x18, 0x00, 0x14, 0x00, 0x10, 0x00, 0x0c, 0x00, 0x08, 0x00, 0x04, 0x00, 0x0e, 0x00, 0x00, 0x00, 0x14, 0x00, 0x00, 0x00, 0x1c, 0x00, 0x00, 0x00, 0xd8, 0x00, 0x00, 0x00, 0xdc, 0x00, 0x00, 0x00, 0xe0, 0x00, 0x00, 0x00, 0x04, 0x00, 0x00, 0x00, 0x6d, 0x61, 0x69, 0x6e, 0x00, 0x00, 0x00, 0x00, 0x03, 0x00, 0x00, 0x00, 0x80, 0x00, 0x00, 0x00, 0x38, 0x00, 0x00, 0x00, 0x04, 0x00, 0x00, 0x00, 0x9a, 0xff, 0xff, 0xff, 0x10, 0x00, 0x00, 0x00, 0x00, 0x00, 0x00, 0x08, 0x0c, 0x00, 0x00, 0x00, 0x10, 0x00, 0x00, 0x00, 0xac, 0xfb, 0xff, 0xff, 0x01, 0x00, 0x00, 0x00, 0x09, 0x00, 0x00, 0x00, 0x03, 0x00, 0x00, 0x00, 0x08, 0x00, 0x00, 0x00, 0x01, 0x00, 0x00, 0x00, 0x03, 0x00, 0x00, 0x00, 0xca, 0xff, 0xff, 0xff, 0x10, 0x00, 0x00, 0x00, 0x00, 0x00, 0x00, 0x08, 0x10, 0x00, 0x00, 0x00, 0x14, 0x00, 0x00, 0x00, 0xba, 0xff, 0xff, 0xff, 0x00, 0x00, 0x00, 0x01, 0x01, 0x00, 0x00, 0x00, 0x08, 0x00, 0x00, 0x00, 0x03, 0x00, 0x00, 0x00, 0x07, 0x00, 0x00, 0x00, 0x02, 0x00, 0x00, 0x00, 0x04, 0x00, 0x00, 0x00, 0x00, 0x00, 0x0e, 0x00, 0x16, 0x00, 0x00, 0x00, 0x10, 0x00, 0x0c, 0x00, 0x0b, 0x00, 0x04, 0x00, 0x0e, 0x00, 0x00, 0x00, 0x18, 0x00, 0x00, 0x00, 0x00, 0x00, 0x00, 0x08, 0x18, 0x00, 0x00, 0x00, 0x1c, 0x00, 0x00, 0x00, 0x00, 0x00, 0x06, 0x00, 0x08, 0x00, 0x07, 0x00, 0x06, 0x00, 0x00, 0x00, 0x00, 0x00, 0x00, 0x01, 0x01, 0x00, 0x00, 0x00, 0x07, 0x00, 0x00, 0x00, 0x03, 0x00, 0x00, 0x00, 0x00, 0x00, 0x00, 0x00, 0x06, 0x00, 0x00, 0x00, 0x05, 0x00, 0x00, 0x00, 0x01, 0x00, 0x00, 0x00, 0x09, 0x00, 0x00, 0x00, 0x01, 0x00, 0x00, 0x00, 0x00, 0x00, 0x00, 0x00, 0x0a, 0x00, 0x00, 0x00, 0x7c, 0x03, 0x00, 0x00, 0x24, 0x03, 0x00, 0x00, 0xcc, 0x02, 0x00, 0x00, 0x90, 0x02, 0x00, 0x00, 0x34, 0x02, 0x00, 0x00, 0xdc, 0x01, 0x00, 0x00, 0x90, 0x01, 0x00, 0x00, 0xfc, 0x00, 0x00, 0x00, 0x60, 0x00, 0x00, 0x00, 0x04, 0x00, 0x00, 0x00, 0xc2, 0xfc, 0xff, 0xff, 0x00, 0x00, 0x00, 0x01, 0x14, 0x00, 0x00, 0x00, 0x1c, 0x00, 0x00, 0x00, 0x1c, 0x00, 0x00, 0x00, 0x0a, 0x00, 0x00, 0x00, 0x34, 0x00, 0x00, 0x00, 0x02, 0x00, 0x00, 0x00, 0xff, 0xff, 0xff, 0xff, 0x01, 0x00, 0x00, 0x00, 0xac, 0xfc, 0xff, 0xff, 0x1b, 0x00, 0x00, 0x00, 0x53, 0x74, 0x61, 0x74, 0x65, 0x66, 0x75, 0x6c, 0x50, 0x61, 0x72, 0x74, 0x69, 0x74, 0x69, 0x6f, 0x6e, 0x65, 0x64, 0x43, 0x61, 0x6c, 0x6c, 0x5f, 0x31, 0x3a, 0x30, 0x00, 0x02, 0x00, 0x00, 0x00, 0x01, 0x00, 0x00, 0x00, 0x01, 0x00, 0x00, 0x00, 0x1a, 0xfd, 0xff, 0xff, 0x00, 0x00, 0x00, 0x01, 0x14, 0x00, 0x00, 0x00, 0x1c, 0x00, 0x00, 0x00, 0x1c, 0x00, 0x00, 0x00, 0x09, 0x00, 0x00, 0x00, 0x74, 0x00, 0x00, 0x00, 0x02, 0x00, 0x00, 0x00, 0xff, 0xff, 0xff, 0xff, 0x08, 0x00, 0x00, 0x00, 0x04, 0xfd, 0xff, 0xff, 0x58, 0x00, 0x00, 0x00, 0x73, 0x65, 0x71, 0x75, 0x65, 0x6e, 0x74, 0x69, 0x61, 0x6c, 0x5f, 0x31, 0x2f, 0x64, 0x65, 0x6e, 0x73, 0x65, 0x5f, 0x31, 0x5f, 0x32, 0x2f, 0x4d, 0x61, 0x74, 0x4d, 0x75, 0x6c, 0x3b, 0x73, 0x65, 0x71, 0x75, 0x65, 0x6e, 0x74, 0x69, 0x61, 0x6c, 0x5f, 0x31, 0x2f, 0x64, 0x65, 0x6e, 0x73, 0x65, 0x5f, 0x31, 0x5f, 0x32, 0x2f, 0x52, 0x65, 0x6c, 0x75, 0x3b, 0x73, 0x65, 0x71, 0x75, 0x65, 0x6e, 0x74, 0x69, 0x61, 0x6c, 0x5f, 0x31, 0x2f, 0x64, 0x65, 0x6e, 0x73, 0x65, 0x5f, 0x31, 0x5f, 0x32, 0x2f, 0x42, 0x69, 0x61, 0x73, 0x41, 0x64, 0x64, 0x00, 0x00, 0x00, 0x00, 0x02, 0x00, 0x00, 0x00, 0x01, 0x00, 0x00, 0x00, 0x08, 0x00, 0x00, 0x00, 0xb2, 0xfd, 0xff, 0xff, 0x00, 0x00, 0x00, 0x01, 0x14, 0x00, 0x00, 0x00, 0x1c, 0x00, 0x00, 0x00, 0x1c, 0x00, 0x00, 0x00, 0x08, 0x00, 0x00, 0x00, 0x6c, 0x00, 0x00, 0x00, 0x02, 0x00, 0x00, 0x00, 0xff, 0xff, 0xff, 0xff, 0x10, 0x00, 0x00, 0x00, 0x9c, 0xfd, 0xff, 0xff, 0x52, 0x00, 0x00, 0x00, 0x73, 0x65, 0x71, 0x75, 0x65, 0x6e, 0x74, 0x69, 0x61, 0x6c, 0x5f, 0x31, 0x2f, 0x64, 0x65, 0x6e, 0x73, 0x65, 0x5f, 0x31, 0x2f, 0x4d, 0x61, 0x74, 0x4d, 0x75, 0x6c, 0x3b, 0x73, 0x65, 0x71, 0x75, 0x65, 0x6e, 0x74, 0x69, 0x61, 0x6c, 0x5f, 0x31, 0x2f, 0x64, 0x65, 0x6e, 0x73, 0x65, 0x5f, 0x31, 0x2f, 0x52, 0x65, 0x6c, 0x75, 0x3b, 0x73, 0x65, 0x71, 0x75, 0x65, 0x6e, 0x74, 0x69, 0x61, 0x6c, 0x5f, 0x31, 0x2f, 0x64, 0x65, 0x6e, 0x73, 0x65, 0x5f, 0x31, 0x2f, 0x42, 0x69, 0x61, 0x73, 0x41, 0x64, 0x64, 0x00, 0x00, 0x02, 0x00, 0x00, 0x00, 0x01, 0x00, 0x00, 0x00, 0x10, 0x00, 0x00, 0x00, 0x96, 0xfe, 0xff, 0xff, 0x00, 0x00, 0x00, 0x01, 0x10, 0x00, 0x00, 0x00, 0x10, 0x00, 0x00, 0x00, 0x07, 0x00, 0x00, 0x00, 0x28, 0x00, 0x00, 0x00, 0x1c, 0xfe, 0xff, 0xff, 0x1b, 0x00, 0x00, 0x00, 0x73, 0x65, 0x71, 0x75, 0x65, 0x6e, 0x74, 0x69, 0x61, 0x6c, 0x5f, 0x31, 0x2f, 0x64, 0x65, 0x6e, 0x73, 0x65, 0x5f, 0x31, 0x2f, 0x4d, 0x61, 0x74, 0x4d, 0x75, 0x6c, 0x00, 0x02, 0x00, 0x00, 0x00, 0x10, 0x00, 0x00, 0x00, 0x03, 0x00, 0x00, 0x00, 0xde, 0xfe, 0xff, 0xff, 0x00, 0x00, 0x00, 0x01, 0x10, 0x00, 0x00, 0x00, 0x10, 0x00, 0x00, 0x00, 0x06, 0x00, 0x00, 0x00, 0x38, 0x00, 0x00, 0x00, 0x64, 0xfe, 0xff, 0xff, 0x2b, 0x00, 0x00, 0x00, 0x73, 0x65, 0x71, 0x75, 0x65, 0x6e, 0x74, 0x69, 0x61, 0x6c, 0x5f, 0x31, 0x2f, 0x64, 0x65, 0x6e, 0x73, 0x65, 0x5f, 0x31, 0x2f, 0x42, 0x69, 0x61, 0x73, 0x41, 0x64, 0x64, 0x2f, 0x52, 0x65, 0x61, 0x64, 0x56, 0x61, 0x72, 0x69, 0x61, 0x62, 0x6c, 0x65, 0x4f, 0x70, 0x00, 0x01, 0x00, 0x00, 0x00, 0x10, 0x00, 0x00, 0x00, 0x32, 0xff, 0xff, 0xff, 0x00, 0x00, 0x00, 0x01, 0x10, 0x00, 0x00, 0x00, 0x10, 0x00, 0x00, 0x00, 0x05, 0x00, 0x00, 0x00, 0x3c, 0x00, 0x00, 0x00, 0xb8, 0xfe, 0xff, 0xff, 0x2d, 0x00, 0x00, 0x00, 0x73, 0x65, 0x71, 0x75, 0x65, 0x6e, 0x74, 0x69, 0x61, 0x6c, 0x5f, 0x31, 0x2f, 0x64, 0x65, 0x6e, 0x73, 0x65, 0x5f, 0x31, 0x5f, 0x32, 0x2f, 0x42, 0x69, 0x61, 0x73, 0x41, 0x64, 0x64, 0x2f, 0x52, 0x65, 0x61, 0x64, 0x56, 0x61, 0x72, 0x69, 0x61, 0x62, 0x6c, 0x65, 0x4f, 0x70, 0x00, 0x00, 0x00, 0x01, 0x00, 0x00, 0x00, 0x08, 0x00, 0x00, 0x00, 0x8a, 0xff, 0xff, 0xff, 0x00, 0x00, 0x00, 0x01, 0x10, 0x00, 0x00, 0x00, 0x10, 0x00, 0x00, 0x00, 0x04, 0x00, 0x00, 0x00, 0x1c, 0x00, 0x00, 0x00, 0x10, 0xff, 0xff, 0xff, 0x0f, 0x00, 0x00, 0x00, 0x61, 0x72, 0x69, 0x74, 0x68, 0x2e, 0x63, 0x6f, 0x6e, 0x73, 0x74, 0x61, 0x6e, 0x74, 0x32, 0x00, 0x01, 0x00, 0x00, 0x00, 0x01, 0x00, 0x00, 0x00, 0xc2, 0xff, 0xff, 0xff, 0x00, 0x00, 0x00, 0x01, 0x10, 0x00, 0x00, 0x00, 0x10, 0x00, 0x00, 0x00, 0x03, 0x00, 0x00, 0x00, 0x1c, 0x00, 0x00, 0x00, 0x48, 0xff, 0xff, 0xff, 0x0f, 0x00, 0x00, 0x00, 0x61, 0x72, 0x69, 0x74, 0x68, 0x2e, 0x63, 0x6f, 0x6e, 0x73, 0x74, 0x61, 0x6e, 0x74, 0x31, 0x00, 0x02, 0x00, 0x00, 0x00, 0x08, 0x00, 0x00, 0x00, 0x10, 0x00, 0x00, 0x00, 0x00, 0x00, 0x16, 0x00, 0x18, 0x00, 0x14, 0x00, 0x00, 0x00, 0x10, 0x00, 0x0c, 0x00, 0x08, 0x00, 0x00, 0x00, 0x00, 0x00, 0x00, 0x00, 0x07, 0x00, 0x16, 0x00, 0x00, 0x00, 0x00, 0x00, 0x00, 0x01, 0x10, 0x00, 0x00, 0x00, 0x10, 0x00, 0x00, 0x00, 0x02, 0x00, 0x00, 0x00, 0x1c, 0x00, 0x00, 0x00, 0x9c, 0xff, 0xff, 0xff, 0x0e, 0x00, 0x00, 0x00, 0x61, 0x72, 0x69, 0x74, 0x68, 0x2e, 0x63, 0x6f, 0x6e, 0x73, 0x74, 0x61, 0x6e, 0x74, 0x00, 0x00, 0x02, 0x00, 0x00, 0x00, 0x01, 0x00, 0x00, 0x00, 0x08, 0x00, 0x00, 0x00, 0x00, 0x00, 0x16, 0x00, 0x1c, 0x00, 0x18, 0x00, 0x00, 0x00, 0x14, 0x00, 0x10, 0x00, 0x0c, 0x00, 0x00, 0x00, 0x00, 0x00, 0x08, 0x00, 0x07, 0x00, 0x16, 0x00, 0x00, 0x00, 0x00, 0x00, 0x00, 0x01, 0x14, 0x00, 0x00, 0x00, 0x20, 0x00, 0x00, 0x00, 0x20, 0x00, 0x00, 0x00, 0x01, 0x00, 0x00, 0x00, 0x3c, 0x00, 0x00, 0x00, 0x02, 0x00, 0x00, 0x00, 0xff, 0xff, 0xff, 0xff, 0x03, 0x00, 0x00, 0x00, 0x04, 0x00, 0x04, 0x00, 0x04, 0x00, 0x00, 0x00, 0x1e, 0x00, 0x00, 0x00, 0x73, 0x65, 0x72, 0x76, 0x69, 0x6e, 0x67, 0x5f, 0x64, 0x65, 0x66, 0x61, 0x75, 0x6c, 0x74, 0x5f, 0x6b, 0x65, 0x72, 0x61, 0x73, 0x5f, 0x74, 0x65, 0x6e, 0x73, 0x6f, 0x72, 0x3a, 0x30, 0x00, 0x00, 0x02, 0x00, 0x00, 0x00, 0x01, 0x00, 0x00, 0x00, 0x03, 0x00, 0x00, 0x00, 0x01, 0x00, 0x00, 0x00, 0x10, 0x00, 0x00, 0x00, 0x0c, 0x00, 0x0c, 0x00, 0x0b, 0x00, 0x00, 0x00, 0x00, 0x00, 0x04, 0x00, 0x0c, 0x00, 0x00, 0x00, 0x09, 0x00, 0x00, 0x00, 0x00, 0x00, 0x00, 0x09
};

const int riego_model_len = 2720;