// ============================================================
// EcoRiego AI — Modelo compatible con EloquentTinyML
// Arquitectura : Dense(16,relu) -> Dense(8,relu) -> Dense(1,lineal)
// Entradas     : [HumedadSuelo, TemperaturaAire, HumedadAire]
// Salida       : TiempoRiego en minutos [0, 15]
// Tamano       : 2856 bytes
// ============================================================

#include <cstdint>

alignas(8) const unsigned char riego_model[] = {
  0x1c, 0x00, 0x00, 0x00, 0x54, 0x46, 0x4c, 0x33, 0x14, 0x00, 0x20, 0x00,
  0x1c, 0x00, 0x18, 0x00, 0x14, 0x00, 0x10, 0x00, 0x0c, 0x00, 0x00, 0x00,
  0x08, 0x00, 0x04, 0x00, 0x14, 0x00, 0x00, 0x00, 0x1c, 0x00, 0x00, 0x00,
  0x98, 0x00, 0x00, 0x00, 0xf0, 0x00, 0x00, 0x00, 0x54, 0x05, 0x00, 0x00,
  0x64, 0x05, 0x00, 0x00, 0xd4, 0x0a, 0x00, 0x00, 0x03, 0x00, 0x00, 0x00,
  0x01, 0x00, 0x00, 0x00, 0x10, 0x00, 0x00, 0x00, 0x00, 0x00, 0x0a, 0x00,
  0x10, 0x00, 0x0c, 0x00, 0x08, 0x00, 0x04, 0x00, 0x0a, 0x00, 0x00, 0x00,
  0x0c, 0x00, 0x00, 0x00, 0x1c, 0x00, 0x00, 0x00, 0x3c, 0x00, 0x00, 0x00,
  0x0f, 0x00, 0x00, 0x00, 0x73, 0x65, 0x72, 0x76, 0x69, 0x6e, 0x67, 0x5f,
  0x64, 0x65, 0x66, 0x61, 0x75, 0x6c, 0x74, 0x00, 0x01, 0x00, 0x00, 0x00,
  0x04, 0x00, 0x00, 0x00, 0x90, 0xff, 0xff, 0xff, 0x09, 0x00, 0x00, 0x00,
  0x04, 0x00, 0x00, 0x00, 0x08, 0x00, 0x00, 0x00, 0x6f, 0x75, 0x74, 0x70,
  0x75, 0x74, 0x5f, 0x30, 0x00, 0x00, 0x00, 0x00, 0x01, 0x00, 0x00, 0x00,
  0x04, 0x00, 0x00, 0x00, 0x5a, 0xfb, 0xff, 0xff, 0x04, 0x00, 0x00, 0x00,
  0x0c, 0x00, 0x00, 0x00, 0x6b, 0x65, 0x72, 0x61, 0x73, 0x5f, 0x74, 0x65,
  0x6e, 0x73, 0x6f, 0x72, 0x00, 0x00, 0x00, 0x00, 0x02, 0x00, 0x00, 0x00,
  0x34, 0x00, 0x00, 0x00, 0x04, 0x00, 0x00, 0x00, 0xdc, 0xff, 0xff, 0xff,
  0x0c, 0x00, 0x00, 0x00, 0x04, 0x00, 0x00, 0x00, 0x13, 0x00, 0x00, 0x00,
  0x43, 0x4f, 0x4e, 0x56, 0x45, 0x52, 0x53, 0x49, 0x4f, 0x4e, 0x5f, 0x4d,
  0x45, 0x54, 0x41, 0x44, 0x41, 0x54, 0x41, 0x00, 0x08, 0x00, 0x0c, 0x00,
  0x08, 0x00, 0x04, 0x00, 0x08, 0x00, 0x00, 0x00, 0x0b, 0x00, 0x00, 0x00,
  0x04, 0x00, 0x00, 0x00, 0x13, 0x00, 0x00, 0x00, 0x6d, 0x69, 0x6e, 0x5f,
  0x72, 0x75, 0x6e, 0x74, 0x69, 0x6d, 0x65, 0x5f, 0x76, 0x65, 0x72, 0x73,
  0x69, 0x6f, 0x6e, 0x00, 0x0d, 0x00, 0x00, 0x00, 0x60, 0x04, 0x00, 0x00,
  0x58, 0x04, 0x00, 0x00, 0x28, 0x04, 0x00, 0x00, 0x10, 0x02, 0x00, 0x00,
  0xe0, 0x01, 0x00, 0x00, 0x90, 0x01, 0x00, 0x00, 0x7c, 0x01, 0x00, 0x00,
  0xac, 0x00, 0x00, 0x00, 0xa4, 0x00, 0x00, 0x00, 0x9c, 0x00, 0x00, 0x00,
  0x94, 0x00, 0x00, 0x00, 0x74, 0x00, 0x00, 0x00, 0x04, 0x00, 0x00, 0x00,
  0x0a, 0xfc, 0xff, 0xff, 0x04, 0x00, 0x00, 0x00, 0x60, 0x00, 0x00, 0x00,
  0x0c, 0x00, 0x00, 0x00, 0x08, 0x00, 0x0e, 0x00, 0x08, 0x00, 0x04, 0x00,
  0x08, 0x00, 0x00, 0x00, 0x10, 0x00, 0x00, 0x00, 0x28, 0x00, 0x00, 0x00,
  0x00, 0x00, 0x06, 0x00, 0x08, 0x00, 0x04, 0x00, 0x06, 0x00, 0x00, 0x00,
  0x04, 0x00, 0x00, 0x00, 0x01, 0x00, 0x00, 0x00, 0xea, 0x03, 0x00, 0x00,
  0x0c, 0x00, 0x18, 0x00, 0x14, 0x00, 0x10, 0x00, 0x0c, 0x00, 0x04, 0x00,
  0x0c, 0x00, 0x00, 0x00, 0x4a, 0xcd, 0x88, 0xcd, 0x54, 0xeb, 0x16, 0x5b,
  0x02, 0x00, 0x00, 0x00, 0x02, 0x00, 0x00, 0x00, 0x04, 0x00, 0x00, 0x00,
  0x06, 0x00, 0x00, 0x00, 0x32, 0x2e, 0x31, 0x39, 0x2e, 0x30, 0x00, 0x00,
  0x76, 0xfc, 0xff, 0xff, 0x04, 0x00, 0x00, 0x00, 0x10, 0x00, 0x00, 0x00,
  0x31, 0x2e, 0x35, 0x2e, 0x30, 0x00, 0x00, 0x00, 0x00, 0x00, 0x00, 0x00,
  0x00, 0x00, 0x00, 0x00, 0x08, 0xf7, 0xff, 0xff, 0x0c, 0xf7, 0xff, 0xff,
  0x10, 0xf7, 0xff, 0xff, 0x9e, 0xfc, 0xff, 0xff, 0x04, 0x00, 0x00, 0x00,
  0xc0, 0x00, 0x00, 0x00, 0xb5, 0xea, 0x8f, 0xbe, 0xf3, 0x88, 0xd2, 0xbe,
  0xb0, 0x4e, 0x79, 0x3e, 0x80, 0xff, 0xc7, 0xbe, 0xa0, 0xbd, 0xed, 0xbe,
  0x2d, 0x74, 0xd9, 0xbe, 0x44, 0x89, 0xa1, 0x3e, 0xe3, 0xe4, 0x10, 0xbe,
  0x66, 0xb0, 0x1d, 0xbd, 0x65, 0x27, 0xe9, 0x3e, 0x54, 0x54, 0xe1, 0x3e,
  0xd7, 0x7f, 0xc2, 0xbe, 0x25, 0x2f, 0x6a, 0xbe, 0xf4, 0x0c, 0x4f, 0x3e,
  0x56, 0x52, 0x06, 0x3e, 0xaa, 0x71, 0x81, 0xbe, 0xae, 0x3e, 0xf1, 0x3e,
  0xba, 0x43, 0x0a, 0xbe, 0xc5, 0x07, 0xf0, 0xbc, 0xd0, 0x4f, 0x0d, 0xbf,
  0x7b, 0x62, 0xe3, 0x3d, 0x4e, 0xc6, 0xb0, 0xbe, 0xf6, 0x93, 0x0b, 0xbe,
  0x00, 0x40, 0xad, 0xbe, 0xee, 0x0f, 0xd7, 0xbe, 0x04, 0x49, 0x9d, 0xbd,
  0xeb, 0x60, 0x87, 0xbe, 0xc9, 0xbf, 0x0a, 0xbf, 0x4a, 0x43, 0x94, 0xbe,
  0x75, 0x3a, 0xda, 0xbe, 0x46, 0x06, 0x33, 0xbe, 0xa8, 0x84, 0xf2, 0x3d,
  0xc5, 0xd5, 0x00, 0xbe, 0x41, 0xe7, 0x94, 0xbe, 0xb6, 0xb2, 0xb1, 0xbe,
  0x86, 0x70, 0x54, 0x3e, 0x32, 0x84, 0x52, 0x3e, 0x7c, 0xc1, 0x90, 0x3e,
  0x4a, 0xb4, 0x32, 0xbe, 0xd3, 0x35, 0xa3, 0xbd, 0xe8, 0x1a, 0x4d, 0x3e,
  0x3e, 0xf6, 0x0f, 0x3c, 0x2a, 0x20, 0xc6, 0x3e, 0x58, 0x8e, 0xa5, 0x3e,
  0x83, 0x4c, 0xa6, 0xbe, 0x1a, 0xad, 0xcd, 0xbe, 0x63, 0x9e, 0x86, 0x3e,
  0x5a, 0x9a, 0xb8, 0x3e, 0x6a, 0xfd, 0xff, 0xff, 0x04, 0x00, 0x00, 0x00,
  0x04, 0x00, 0x00, 0x00, 0x57, 0xc0, 0xda, 0xbe, 0x7a, 0xfd, 0xff, 0xff,
  0x04, 0x00, 0x00, 0x00, 0x40, 0x00, 0x00, 0x00, 0x2a, 0xe3, 0x93, 0xbf,
  0x00, 0x00, 0x00, 0x00, 0x17, 0x2d, 0x2d, 0xbf, 0xac, 0xa1, 0xc9, 0x3f,
  0x19, 0xa5, 0x53, 0x3f, 0x0d, 0x0f, 0x16, 0x3f, 0xb3, 0x8d, 0x84, 0x3f,
  0x00, 0x00, 0x00, 0x00, 0x00, 0x00, 0x00, 0x00, 0x00, 0x00, 0x00, 0x00,
  0x1f, 0x76, 0xbf, 0xbd, 0x1a, 0x0e, 0xd6, 0x3f, 0x21, 0x35, 0xbe, 0x3d,
  0x31, 0xec, 0xa9, 0xbf, 0xeb, 0x05, 0x65, 0xbf, 0x48, 0xe7, 0xa2, 0xbf,
  0xc6, 0xfd, 0xff, 0xff, 0x04, 0x00, 0x00, 0x00, 0x20, 0x00, 0x00, 0x00,
  0xd9, 0x7f, 0xe1, 0xbe, 0x18, 0x38, 0xa3, 0xbf, 0x1b, 0xb7, 0xb8, 0xbf,
  0x28, 0x5d, 0x30, 0xbf, 0xa1, 0xb7, 0x80, 0x3f, 0x71, 0x12, 0x63, 0xbf,
  0xc4, 0x00, 0xd9, 0x3e, 0xfb, 0x1c, 0x99, 0xbe, 0xf2, 0xfd, 0xff, 0xff,
  0x04, 0x00, 0x00, 0x00, 0x00, 0x02, 0x00, 0x00, 0x0c, 0x4c, 0xa3, 0x3d,
  0xa8, 0x59, 0x95, 0xbe, 0xcc, 0x2f, 0x14, 0x3e, 0x44, 0xdc, 0x9b, 0x3e,
  0x32, 0x08, 0x50, 0x3e, 0x12, 0xcc, 0xa8, 0x3e, 0x4d, 0x37, 0xd4, 0x3d,
  0xcc, 0xbc, 0xc9, 0x3e, 0xc0, 0x43, 0x17, 0xbd, 0x28, 0xa0, 0x04, 0x3e,
  0xd0, 0xe6, 0x9c, 0xbe, 0x1a, 0x8c, 0x62, 0x3d, 0x69, 0x0a, 0xb6, 0x3e,
  0xdb, 0xdb, 0xa0, 0xbe, 0x24, 0x15, 0x41, 0xbe, 0xc2, 0xde, 0xcb, 0x3d,
  0x93, 0x78, 0xd0, 0x3e, 0x50, 0xd7, 0x69, 0xbe, 0x2a, 0x38, 0x29, 0xbf,
  0xe4, 0xf9, 0x1a, 0xbe, 0x82, 0xae, 0x76, 0xbe, 0xb8, 0x8f, 0xc9, 0xbe,
  0xe2, 0x50, 0x16, 0xbf, 0x6c, 0xca, 0xa8, 0x3e, 0x20, 0x30, 0xa2, 0xbd,
  0xc0, 0xd4, 0x6c, 0x3e, 0x04, 0x1f, 0x3f, 0xbe, 0x45, 0x63, 0xc2, 0xbe,
  0x45, 0x52, 0xc3, 0x3e, 0x24, 0x99, 0xe6, 0x3e, 0xc0, 0x93, 0xa7, 0xbe,
  0x21, 0x51, 0x34, 0x3e, 0x6b, 0x30, 0x60, 0xbe, 0x38, 0x1c, 0x8a, 0xbe,
  0xae, 0x23, 0xde, 0x3e, 0x37, 0xd2, 0x95, 0x3e, 0x14, 0xae, 0xbe, 0xbe,
  0x4c, 0xe2, 0x0f, 0x3f, 0x99, 0x35, 0xc8, 0x3d, 0xe8, 0xad, 0x52, 0xbe,
  0x20, 0x7b, 0x77, 0x3e, 0x60, 0xc0, 0x3b, 0xbe, 0x28, 0x60, 0x92, 0xbe,
  0x8f, 0xba, 0xe2, 0xbf, 0x38, 0xc5, 0xc6, 0x3d, 0x42, 0xe4, 0x54, 0xbf,
  0xcc, 0x9a, 0x8f, 0x3e, 0x27, 0xf4, 0xb1, 0xbd, 0x7f, 0xa9, 0x34, 0xbe,
  0x50, 0x99, 0x02, 0xbe, 0x0b, 0xf2, 0x8b, 0xbe, 0x72, 0x07, 0x68, 0x3d,
  0x78, 0xdb, 0xc7, 0x3e, 0x6d, 0x65, 0x45, 0xbc, 0xce, 0xa9, 0xa5, 0xbd,
  0xd4, 0x33, 0xb1, 0xbe, 0x68, 0xdd, 0x2b, 0x3e, 0xb0, 0x64, 0x9b, 0x3d,
  0x74, 0x20, 0xeb, 0x3c, 0xc3, 0x2a, 0xc8, 0x3e, 0x83, 0x57, 0x89, 0xbe,
  0xd3, 0x86, 0xce, 0x3d, 0x5d, 0x66, 0x77, 0x3e, 0x98, 0x69, 0xd2, 0x3e,
  0x74, 0xbf, 0xe8, 0x3c, 0x9c, 0xc6, 0xbd, 0x3e, 0xf0, 0x09, 0xac, 0xbe,
  0x73, 0xf0, 0x47, 0xbf, 0xfb, 0x8b, 0x92, 0xbe, 0x62, 0x5b, 0xb8, 0xbf,
  0x3f, 0x65, 0xd7, 0x3d, 0xe0, 0x92, 0x0f, 0x3e, 0x58, 0xaf, 0x6b, 0xbe,
  0xd8, 0x04, 0x3a, 0x3e, 0x7a, 0x8d, 0x9f, 0x3e, 0xc9, 0x94, 0x40, 0x3e,
  0x21, 0xba, 0x0f, 0x3d, 0x9e, 0x54, 0x00, 0xbf, 0x1b, 0x41, 0x04, 0xbf,
  0x12, 0x6f, 0xb1, 0x3e, 0x48, 0x6b, 0xb8, 0xbe, 0x10, 0x50, 0xcd, 0xbd,
  0x2c, 0x0c, 0x29, 0x3e, 0x7b, 0xf4, 0xd1, 0xbd, 0x29, 0x1c, 0x99, 0xbe,
  0xd9, 0x27, 0xe7, 0x3e, 0x59, 0xa6, 0x0a, 0xbd, 0x70, 0x31, 0x80, 0xbd,
  0x5c, 0xfb, 0xf8, 0x3e, 0xb8, 0x4e, 0x16, 0x3e, 0xb1, 0x7c, 0x7f, 0xbd,
  0x34, 0x49, 0x4f, 0xbe, 0xf1, 0x65, 0x8b, 0x3e, 0x8e, 0x0e, 0xe7, 0xbe,
  0x43, 0x45, 0xb8, 0x3d, 0xc4, 0xf9, 0xb4, 0xbd, 0xb3, 0x5b, 0x36, 0x3e,
  0x40, 0x9d, 0x46, 0x3e, 0xa0, 0xf9, 0x68, 0xbd, 0x9d, 0xca, 0xea, 0xbb,
  0x97, 0x18, 0x77, 0x3e, 0x68, 0x28, 0x0f, 0xbf, 0xfe, 0x92, 0x15, 0x3e,
  0x94, 0x1d, 0xe8, 0xbe, 0xf0, 0xcd, 0x90, 0xbe, 0xe8, 0x88, 0x61, 0x3e,
  0x0e, 0xda, 0xc9, 0x3e, 0x8c, 0xab, 0xc6, 0x3e, 0x32, 0x6e, 0x6e, 0x3e,
  0x2c, 0x06, 0x59, 0xbe, 0xc2, 0x0f, 0xa8, 0x3b, 0x8b, 0x39, 0x3f, 0x3e,
  0x5e, 0x62, 0x05, 0x3e, 0x10, 0xef, 0x65, 0xbe, 0x77, 0xc6, 0x93, 0x3e,
  0x90, 0xed, 0xac, 0x3e, 0xf1, 0xdd, 0x5f, 0x3d, 0x20, 0xeb, 0xa2, 0x3e,
  0xd1, 0x3d, 0x5d, 0x3e, 0x80, 0x1b, 0x61, 0x3c, 0x78, 0x8f, 0x1b, 0x3e,
  0x20, 0x88, 0x7c, 0xbd, 0x64, 0xac, 0x8a, 0xbe, 0xdc, 0x43, 0x0e, 0xbf,
  0x54, 0x5d, 0x5d, 0x3c, 0xf9, 0x40, 0xe8, 0x3e, 0x84, 0xe5, 0xda, 0xbd,
  0xcb, 0xdd, 0x43, 0x3d, 0x00, 0x00, 0x06, 0x00, 0x08, 0x00, 0x04, 0x00,
  0x06, 0x00, 0x00, 0x00, 0x04, 0x00, 0x00, 0x00, 0x20, 0x00, 0x00, 0x00,
  0x66, 0xcc, 0xc3, 0x3e, 0x3d, 0x81, 0x82, 0x3f, 0x35, 0xec, 0x96, 0xbd,
  0xba, 0xa6, 0xe2, 0x3e, 0x96, 0x51, 0xe6, 0xbd, 0x1f, 0x89, 0xdc, 0xbe,
  0x07, 0x78, 0xea, 0xbe, 0xbc, 0x4a, 0x7a, 0x3d, 0xa8, 0xfa, 0xff, 0xff,
  0xac, 0xfa, 0xff, 0xff, 0x0f, 0x00, 0x00, 0x00, 0x4d, 0x4c, 0x49, 0x52,
  0x20, 0x43, 0x6f, 0x6e, 0x76, 0x65, 0x72, 0x74, 0x65, 0x64, 0x2e, 0x00,
  0x01, 0x00, 0x00, 0x00, 0x14, 0x00, 0x00, 0x00, 0x00, 0x00, 0x0e, 0x00,
  0x18, 0x00, 0x14, 0x00, 0x10, 0x00, 0x0c, 0x00, 0x08, 0x00, 0x04, 0x00,
  0x0e, 0x00, 0x00, 0x00, 0x14, 0x00, 0x00, 0x00, 0x1c, 0x00, 0x00, 0x00,
  0xe8, 0x00, 0x00, 0x00, 0xec, 0x00, 0x00, 0x00, 0xf0, 0x00, 0x00, 0x00,
  0x04, 0x00, 0x00, 0x00, 0x6d, 0x61, 0x69, 0x6e, 0x00, 0x00, 0x00, 0x00,
  0x03, 0x00, 0x00, 0x00, 0x90, 0x00, 0x00, 0x00, 0x48, 0x00, 0x00, 0x00,
  0x04, 0x00, 0x00, 0x00, 0xce, 0xff, 0xff, 0xff, 0x10, 0x00, 0x00, 0x00,
  0x00, 0x00, 0x00, 0x08, 0x0c, 0x00, 0x00, 0x00, 0x10, 0x00, 0x00, 0x00,
  0x24, 0xfb, 0xff, 0xff, 0x01, 0x00, 0x00, 0x00, 0x09, 0x00, 0x00, 0x00,
  0x03, 0x00, 0x00, 0x00, 0x08, 0x00, 0x00, 0x00, 0x01, 0x00, 0x00, 0x00,
  0x05, 0x00, 0x00, 0x00, 0x00, 0x00, 0x0e, 0x00, 0x14, 0x00, 0x00, 0x00,
  0x10, 0x00, 0x0c, 0x00, 0x0b, 0x00, 0x04, 0x00, 0x0e, 0x00, 0x00, 0x00,
  0x10, 0x00, 0x00, 0x00, 0x00, 0x00, 0x00, 0x08, 0x10, 0x00, 0x00, 0x00,
  0x14, 0x00, 0x00, 0x00, 0xba, 0xff, 0xff, 0xff, 0x00, 0x00, 0x00, 0x01,
  0x01, 0x00, 0x00, 0x00, 0x08, 0x00, 0x00, 0x00, 0x03, 0x00, 0x00, 0x00,
  0x07, 0x00, 0x00, 0x00, 0x02, 0x00, 0x00, 0x00, 0x03, 0x00, 0x00, 0x00,
  0x00, 0x00, 0x0e, 0x00, 0x16, 0x00, 0x00, 0x00, 0x10, 0x00, 0x0c, 0x00,
  0x0b, 0x00, 0x04, 0x00, 0x0e, 0x00, 0x00, 0x00, 0x18, 0x00, 0x00, 0x00,
  0x00, 0x00, 0x00, 0x08, 0x18, 0x00, 0x00, 0x00, 0x1c, 0x00, 0x00, 0x00,
  0x00, 0x00, 0x06, 0x00, 0x08, 0x00, 0x07, 0x00, 0x06, 0x00, 0x00, 0x00,
  0x00, 0x00, 0x00, 0x01, 0x01, 0x00, 0x00, 0x00, 0x07, 0x00, 0x00, 0x00,
  0x03, 0x00, 0x00, 0x00, 0x00, 0x00, 0x00, 0x00, 0x06, 0x00, 0x00, 0x00,
  0x04, 0x00, 0x00, 0x00, 0x01, 0x00, 0x00, 0x00, 0x09, 0x00, 0x00, 0x00,
  0x01, 0x00, 0x00, 0x00, 0x00, 0x00, 0x00, 0x00, 0x0a, 0x00, 0x00, 0x00,
  0xf4, 0x03, 0x00, 0x00, 0x9c, 0x03, 0x00, 0x00, 0x44, 0x03, 0x00, 0x00,
  0xe0, 0x02, 0x00, 0x00, 0x7c, 0x02, 0x00, 0x00, 0x1c, 0x02, 0x00, 0x00,
  0xc4, 0x01, 0x00, 0x00, 0x14, 0x01, 0x00, 0x00, 0x60, 0x00, 0x00, 0x00,
  0x04, 0x00, 0x00, 0x00, 0x4a, 0xfc, 0xff, 0xff, 0x00, 0x00, 0x00, 0x01,
  0x14, 0x00, 0x00, 0x00, 0x1c, 0x00, 0x00, 0x00, 0x1c, 0x00, 0x00, 0x00,
  0x0a, 0x00, 0x00, 0x00, 0x34, 0x00, 0x00, 0x00, 0x02, 0x00, 0x00, 0x00,
  0xff, 0xff, 0xff, 0xff, 0x01, 0x00, 0x00, 0x00, 0x34, 0xfc, 0xff, 0xff,
  0x1b, 0x00, 0x00, 0x00, 0x53, 0x74, 0x61, 0x74, 0x65, 0x66, 0x75, 0x6c,
  0x50, 0x61, 0x72, 0x74, 0x69, 0x74, 0x69, 0x6f, 0x6e, 0x65, 0x64, 0x43,
  0x61, 0x6c, 0x6c, 0x5f, 0x31, 0x3a, 0x30, 0x00, 0x02, 0x00, 0x00, 0x00,
  0x01, 0x00, 0x00, 0x00, 0x01, 0x00, 0x00, 0x00, 0xa2, 0xfc, 0xff, 0xff,
  0x00, 0x00, 0x00, 0x01, 0x14, 0x00, 0x00, 0x00, 0x1c, 0x00, 0x00, 0x00,
  0x1c, 0x00, 0x00, 0x00, 0x09, 0x00, 0x00, 0x00, 0x8c, 0x00, 0x00, 0x00,
  0x02, 0x00, 0x00, 0x00, 0xff, 0xff, 0xff, 0xff, 0x08, 0x00, 0x00, 0x00,
  0x8c, 0xfc, 0xff, 0xff, 0x73, 0x00, 0x00, 0x00, 0x65, 0x63, 0x6f, 0x72,
  0x69, 0x65, 0x67, 0x6f, 0x5f, 0x63, 0x6f, 0x6d, 0x70, 0x61, 0x74, 0x69,
  0x62, 0x6c, 0x65, 0x5f, 0x31, 0x2f, 0x64, 0x65, 0x6e, 0x73, 0x65, 0x5f,
  0x31, 0x5f, 0x32, 0x2f, 0x4d, 0x61, 0x74, 0x4d, 0x75, 0x6c, 0x3b, 0x65,
  0x63, 0x6f, 0x72, 0x69, 0x65, 0x67, 0x6f, 0x5f, 0x63, 0x6f, 0x6d, 0x70,
  0x61, 0x74, 0x69, 0x62, 0x6c, 0x65, 0x5f, 0x31, 0x2f, 0x64, 0x65, 0x6e,
  0x73, 0x65, 0x5f, 0x31, 0x5f, 0x32, 0x2f, 0x52, 0x65, 0x6c, 0x75, 0x3b,
  0x65, 0x63, 0x6f, 0x72, 0x69, 0x65, 0x67, 0x6f, 0x5f, 0x63, 0x6f, 0x6d,
  0x70, 0x61, 0x74, 0x69, 0x62, 0x6c, 0x65, 0x5f, 0x31, 0x2f, 0x64, 0x65,
  0x6e, 0x73, 0x65, 0x5f, 0x31, 0x5f, 0x32, 0x2f, 0x42, 0x69, 0x61, 0x73,
  0x41, 0x64, 0x64, 0x00, 0x02, 0x00, 0x00, 0x00, 0x01, 0x00, 0x00, 0x00,
  0x08, 0x00, 0x00, 0x00, 0x52, 0xfd, 0xff, 0xff, 0x00, 0x00, 0x00, 0x01,
  0x14, 0x00, 0x00, 0x00, 0x1c, 0x00, 0x00, 0x00, 0x1c, 0x00, 0x00, 0x00,
  0x08, 0x00, 0x00, 0x00, 0x88, 0x00, 0x00, 0x00, 0x02, 0x00, 0x00, 0x00,
  0xff, 0xff, 0xff, 0xff, 0x10, 0x00, 0x00, 0x00, 0x3c, 0xfd, 0xff, 0xff,
  0x6d, 0x00, 0x00, 0x00, 0x65, 0x63, 0x6f, 0x72, 0x69, 0x65, 0x67, 0x6f,
  0x5f, 0x63, 0x6f, 0x6d, 0x70, 0x61, 0x74, 0x69, 0x62, 0x6c, 0x65, 0x5f,
  0x31, 0x2f, 0x64, 0x65, 0x6e, 0x73, 0x65, 0x5f, 0x31, 0x2f, 0x4d, 0x61,
  0x74, 0x4d, 0x75, 0x6c, 0x3b, 0x65, 0x63, 0x6f, 0x72, 0x69, 0x65, 0x67,
  0x6f, 0x5f, 0x63, 0x6f, 0x6d, 0x70, 0x61, 0x74, 0x69, 0x62, 0x6c, 0x65,
  0x5f, 0x31, 0x2f, 0x64, 0x65, 0x6e, 0x73, 0x65, 0x5f, 0x31, 0x2f, 0x52,
  0x65, 0x6c, 0x75, 0x3b, 0x65, 0x63, 0x6f, 0x72, 0x69, 0x65, 0x67, 0x6f,
  0x5f, 0x63, 0x6f, 0x6d, 0x70, 0x61, 0x74, 0x69, 0x62, 0x6c, 0x65, 0x5f,
  0x31, 0x2f, 0x64, 0x65, 0x6e, 0x73, 0x65, 0x5f, 0x31, 0x2f, 0x42, 0x69,
  0x61, 0x73, 0x41, 0x64, 0x64, 0x00, 0x00, 0x00, 0x02, 0x00, 0x00, 0x00,
  0x01, 0x00, 0x00, 0x00, 0x10, 0x00, 0x00, 0x00, 0x52, 0xfe, 0xff, 0xff,
  0x00, 0x00, 0x00, 0x01, 0x10, 0x00, 0x00, 0x00, 0x10, 0x00, 0x00, 0x00,
  0x07, 0x00, 0x00, 0x00, 0x34, 0x00, 0x00, 0x00, 0xd8, 0xfd, 0xff, 0xff,
  0x24, 0x00, 0x00, 0x00, 0x65, 0x63, 0x6f, 0x72, 0x69, 0x65, 0x67, 0x6f,
  0x5f, 0x63, 0x6f, 0x6d, 0x70, 0x61, 0x74, 0x69, 0x62, 0x6c, 0x65, 0x5f,
  0x31, 0x2f, 0x64, 0x65, 0x6e, 0x73, 0x65, 0x5f, 0x31, 0x2f, 0x4d, 0x61,
  0x74, 0x4d, 0x75, 0x6c, 0x00, 0x00, 0x00, 0x00, 0x02, 0x00, 0x00, 0x00,
  0x10, 0x00, 0x00, 0x00, 0x03, 0x00, 0x00, 0x00, 0xa6, 0xfe, 0xff, 0xff,
  0x00, 0x00, 0x00, 0x01, 0x10, 0x00, 0x00, 0x00, 0x10, 0x00, 0x00, 0x00,
  0x06, 0x00, 0x00, 0x00, 0x40, 0x00, 0x00, 0x00, 0x2c, 0xfe, 0xff, 0xff,
  0x32, 0x00, 0x00, 0x00, 0x65, 0x63, 0x6f, 0x72, 0x69, 0x65, 0x67, 0x6f,
  0x5f, 0x63, 0x6f, 0x6d, 0x70, 0x61, 0x74, 0x69, 0x62, 0x6c, 0x65, 0x5f,
  0x31, 0x2f, 0x64, 0x65, 0x6e, 0x73, 0x65, 0x5f, 0x32, 0x5f, 0x31, 0x2f,
  0x41, 0x64, 0x64, 0x2f, 0x52, 0x65, 0x61, 0x64, 0x56, 0x61, 0x72, 0x69,
  0x61, 0x62, 0x6c, 0x65, 0x4f, 0x70, 0x00, 0x00, 0x01, 0x00, 0x00, 0x00,
  0x01, 0x00, 0x00, 0x00, 0x02, 0xff, 0xff, 0xff, 0x00, 0x00, 0x00, 0x01,
  0x10, 0x00, 0x00, 0x00, 0x10, 0x00, 0x00, 0x00, 0x05, 0x00, 0x00, 0x00,
  0x44, 0x00, 0x00, 0x00, 0x88, 0xfe, 0xff, 0xff, 0x34, 0x00, 0x00, 0x00,
  0x65, 0x63, 0x6f, 0x72, 0x69, 0x65, 0x67, 0x6f, 0x5f, 0x63, 0x6f, 0x6d,
  0x70, 0x61, 0x74, 0x69, 0x62, 0x6c, 0x65, 0x5f, 0x31, 0x2f, 0x64, 0x65,
  0x6e, 0x73, 0x65, 0x5f, 0x31, 0x2f, 0x42, 0x69, 0x61, 0x73, 0x41, 0x64,
  0x64, 0x2f, 0x52, 0x65, 0x61, 0x64, 0x56, 0x61, 0x72, 0x69, 0x61, 0x62,
  0x6c, 0x65, 0x4f, 0x70, 0x00, 0x00, 0x00, 0x00, 0x01, 0x00, 0x00, 0x00,
  0x10, 0x00, 0x00, 0x00, 0x62, 0xff, 0xff, 0xff, 0x00, 0x00, 0x00, 0x01,
  0x10, 0x00, 0x00, 0x00, 0x10, 0x00, 0x00, 0x00, 0x04, 0x00, 0x00, 0x00,
  0x44, 0x00, 0x00, 0x00, 0xe8, 0xfe, 0xff, 0xff, 0x36, 0x00, 0x00, 0x00,
  0x65, 0x63, 0x6f, 0x72, 0x69, 0x65, 0x67, 0x6f, 0x5f, 0x63, 0x6f, 0x6d,
  0x70, 0x61, 0x74, 0x69, 0x62, 0x6c, 0x65, 0x5f, 0x31, 0x2f, 0x64, 0x65,
  0x6e, 0x73, 0x65, 0x5f, 0x31, 0x5f, 0x32, 0x2f, 0x42, 0x69, 0x61, 0x73,
  0x41, 0x64, 0x64, 0x2f, 0x52, 0x65, 0x61, 0x64, 0x56, 0x61, 0x72, 0x69,
  0x61, 0x62, 0x6c, 0x65, 0x4f, 0x70, 0x00, 0x00, 0x01, 0x00, 0x00, 0x00,
  0x08, 0x00, 0x00, 0x00, 0xc2, 0xff, 0xff, 0xff, 0x00, 0x00, 0x00, 0x01,
  0x10, 0x00, 0x00, 0x00, 0x10, 0x00, 0x00, 0x00, 0x03, 0x00, 0x00, 0x00,
  0x1c, 0x00, 0x00, 0x00, 0x48, 0xff, 0xff, 0xff, 0x0f, 0x00, 0x00, 0x00,
  0x61, 0x72, 0x69, 0x74, 0x68, 0x2e, 0x63, 0x6f, 0x6e, 0x73, 0x74, 0x61,
  0x6e, 0x74, 0x31, 0x00, 0x02, 0x00, 0x00, 0x00, 0x08, 0x00, 0x00, 0x00,
  0x10, 0x00, 0x00, 0x00, 0x00, 0x00, 0x16, 0x00, 0x18, 0x00, 0x14, 0x00,
  0x00, 0x00, 0x10, 0x00, 0x0c, 0x00, 0x08, 0x00, 0x00, 0x00, 0x00, 0x00,
  0x00, 0x00, 0x07, 0x00, 0x16, 0x00, 0x00, 0x00, 0x00, 0x00, 0x00, 0x01,
  0x10, 0x00, 0x00, 0x00, 0x10, 0x00, 0x00, 0x00, 0x02, 0x00, 0x00, 0x00,
  0x1c, 0x00, 0x00, 0x00, 0x9c, 0xff, 0xff, 0xff, 0x0e, 0x00, 0x00, 0x00,
  0x61, 0x72, 0x69, 0x74, 0x68, 0x2e, 0x63, 0x6f, 0x6e, 0x73, 0x74, 0x61,
  0x6e, 0x74, 0x00, 0x00, 0x02, 0x00, 0x00, 0x00, 0x01, 0x00, 0x00, 0x00,
  0x08, 0x00, 0x00, 0x00, 0x00, 0x00, 0x16, 0x00, 0x1c, 0x00, 0x18, 0x00,
  0x00, 0x00, 0x14, 0x00, 0x10, 0x00, 0x0c, 0x00, 0x00, 0x00, 0x00, 0x00,
  0x08, 0x00, 0x07, 0x00, 0x16, 0x00, 0x00, 0x00, 0x00, 0x00, 0x00, 0x01,
  0x14, 0x00, 0x00, 0x00, 0x20, 0x00, 0x00, 0x00, 0x20, 0x00, 0x00, 0x00,
  0x01, 0x00, 0x00, 0x00, 0x3c, 0x00, 0x00, 0x00, 0x02, 0x00, 0x00, 0x00,
  0xff, 0xff, 0xff, 0xff, 0x03, 0x00, 0x00, 0x00, 0x04, 0x00, 0x04, 0x00,
  0x04, 0x00, 0x00, 0x00, 0x1e, 0x00, 0x00, 0x00, 0x73, 0x65, 0x72, 0x76,
  0x69, 0x6e, 0x67, 0x5f, 0x64, 0x65, 0x66, 0x61, 0x75, 0x6c, 0x74, 0x5f,
  0x6b, 0x65, 0x72, 0x61, 0x73, 0x5f, 0x74, 0x65, 0x6e, 0x73, 0x6f, 0x72,
  0x3a, 0x30, 0x00, 0x00, 0x02, 0x00, 0x00, 0x00, 0x01, 0x00, 0x00, 0x00,
  0x03, 0x00, 0x00, 0x00, 0x01, 0x00, 0x00, 0x00, 0x10, 0x00, 0x00, 0x00,
  0x0c, 0x00, 0x0c, 0x00, 0x0b, 0x00, 0x00, 0x00, 0x00, 0x00, 0x04, 0x00,
  0x0c, 0x00, 0x00, 0x00, 0x09, 0x00, 0x00, 0x00, 0x00, 0x00, 0x00, 0x09,
};

const int riego_model_len = 2856;
